#ifndef LENSES_MODEL_ESP32_H
#define LENSES_MODEL_ESP32_H

/*
 Author: Auto Generated
 CAUTION: This is an auto-generated file.
 DO NOT EDIT OR MAKE ANY CHANGES TO IT.
 This model data was generated on Sat Nov  2 17:42:28 2024

 Tools used:
 Python:3.7.12 | packaged by conda-forge | (default, Oct 26 2021, 05:37:49) [MSC v.1916 64 bit (AMD64)]
 Numpy:1.21.5
 TensorFlow:2.7.0
 Keras: 2.7.0

 Model details are:
 NUM_OF_EPOCHS = 50
 BATCH_SIZE    = 8
*/

const int DENSE1_SIZE = 15;
const int DENSE2_SIZE = 10;

const unsigned int lenses_model_esp32_len = 3240;
alignas(8) const unsigned char lenses_model_esp32[] = {

0x1c,0x00,0x00,0x00,0x54,0x46,0x4c,0x33,0x14,0x00,0x20,0x00,
0x04,0x00,0x08,0x00,0x0c,0x00,0x10,0x00,0x14,0x00,0x00,0x00,
0x18,0x00,0x1c,0x00,0x14,0x00,0x00,0x00,0x03,0x00,0x00,0x00,
0x18,0x00,0x00,0x00,0x2c,0x00,0x00,0x00,0x4c,0x01,0x00,0x00,
0x2c,0x00,0x00,0x00,0xf4,0x00,0x00,0x00,0x6c,0x00,0x00,0x00,
0x05,0x00,0x00,0x00,0xcc,0x06,0x00,0x00,0x10,0x06,0x00,0x00,
0x28,0x05,0x00,0x00,0x98,0x02,0x00,0x00,0x00,0x02,0x00,0x00,
0x01,0x00,0x00,0x00,0x44,0x01,0x00,0x00,0x11,0x00,0x00,0x00,
0x44,0x0c,0x00,0x00,0x40,0x0c,0x00,0x00,0x64,0x0b,0x00,0x00,
0x54,0x0a,0x00,0x00,0xb8,0x09,0x00,0x00,0xac,0x08,0x00,0x00,
0x20,0x08,0x00,0x00,0x8c,0x07,0x00,0x00,0x1c,0x07,0x00,0x00,
0x20,0x0c,0x00,0x00,0x1c,0x0c,0x00,0x00,0x18,0x0c,0x00,0x00,
0x14,0x0c,0x00,0x00,0x10,0x0c,0x00,0x00,0x0c,0x0c,0x00,0x00,
0x08,0x0c,0x00,0x00,0xbc,0x00,0x00,0x00,0x01,0x00,0x00,0x00,
0x10,0x00,0x00,0x00,0x00,0x00,0x0a,0x00,0x10,0x00,0x0c,0x00,
0x08,0x00,0x04,0x00,0x0a,0x00,0x00,0x00,0x0c,0x00,0x00,0x00,
0x1c,0x00,0x00,0x00,0x20,0x00,0x00,0x00,0x0f,0x00,0x00,0x00,
0x73,0x65,0x72,0x76,0x69,0x6e,0x67,0x5f,0x64,0x65,0x66,0x61,
0x75,0x6c,0x74,0x00,0x01,0x00,0x00,0x00,0x14,0x00,0x00,0x00,
0x01,0x00,0x00,0x00,0x24,0x00,0x00,0x00,0x08,0x00,0x0c,0x00,
0x08,0x00,0x04,0x00,0x08,0x00,0x00,0x00,0x0e,0x00,0x00,0x00,
0x04,0x00,0x00,0x00,0x07,0x00,0x00,0x00,0x64,0x65,0x6e,0x73,
0x65,0x5f,0x32,0x00,0x46,0xf5,0xff,0xff,0x04,0x00,0x00,0x00,
0x0d,0x00,0x00,0x00,0x66,0x6c,0x61,0x74,0x74,0x65,0x6e,0x5f,
0x69,0x6e,0x70,0x75,0x74,0x00,0x00,0x00,0x01,0x00,0x00,0x00,
0x0c,0x00,0x00,0x00,0x08,0x00,0x0c,0x00,0x04,0x00,0x08,0x00,
0x08,0x00,0x00,0x00,0x08,0x00,0x00,0x00,0x10,0x00,0x00,0x00,
0x13,0x00,0x00,0x00,0x6d,0x69,0x6e,0x5f,0x72,0x75,0x6e,0x74,
0x69,0x6d,0x65,0x5f,0x76,0x65,0x72,0x73,0x69,0x6f,0x6e,0x00,
0x96,0xf5,0xff,0xff,0x04,0x00,0x00,0x00,0x10,0x00,0x00,0x00,
0x31,0x2e,0x31,0x34,0x2e,0x30,0x00,0x00,0x00,0x00,0x00,0x00,
0x00,0x00,0x00,0x00,0x0f,0x00,0x00,0x00,0x4d,0x4c,0x49,0x52,
0x20,0x43,0x6f,0x6e,0x76,0x65,0x72,0x74,0x65,0x64,0x2e,0x00,
0x00,0x00,0x0e,0x00,0x18,0x00,0x04,0x00,0x08,0x00,0x0c,0x00,
0x10,0x00,0x14,0x00,0x0e,0x00,0x00,0x00,0x14,0x00,0x00,0x00,
0x50,0x00,0x00,0x00,0x54,0x00,0x00,0x00,0x58,0x00,0x00,0x00,
0x74,0x00,0x00,0x00,0x0f,0x00,0x00,0x00,0x90,0x0a,0x00,0x00,
0x34,0x0a,0x00,0x00,0x94,0x09,0x00,0x00,0xac,0x08,0x00,0x00,
0xfc,0x07,0x00,0x00,0x00,0x07,0x00,0x00,0x64,0x06,0x00,0x00,
0xe0,0x05,0x00,0x00,0x58,0x05,0x00,0x00,0x88,0x04,0x00,0x00,
0xa0,0x03,0x00,0x00,0x94,0x02,0x00,0x00,0xb8,0x01,0x00,0x00,
0x08,0x01,0x00,0x00,0x70,0x00,0x00,0x00,0x01,0x00,0x00,0x00,
0x00,0x00,0x00,0x00,0x01,0x00,0x00,0x00,0x0e,0x00,0x00,0x00,
0x07,0x00,0x00,0x00,0xdc,0x04,0x00,0x00,0x24,0x04,0x00,0x00,
0x20,0x03,0x00,0x00,0x2c,0x02,0x00,0x00,0x54,0x01,0x00,0x00,
0x98,0x00,0x00,0x00,0x10,0x00,0x00,0x00,0x04,0x00,0x00,0x00,
0x6d,0x61,0x69,0x6e,0x00,0x00,0x00,0x00,0x0a,0xfc,0xff,0xff,
0x04,0x00,0x00,0x00,0x10,0x00,0x00,0x00,0x04,0x00,0x00,0x00,
0x01,0x00,0x00,0x00,0x0e,0x00,0x00,0x00,0x01,0x00,0x00,0x00,
0x0d,0x00,0x00,0x00,0x50,0xfb,0xff,0xff,0x06,0x00,0x00,0x00,
0x00,0x00,0x00,0x06,0x02,0x00,0x00,0x00,0x2c,0xf6,0xff,0xff,
0x14,0x00,0x00,0x00,0x0f,0x00,0x00,0x00,0x24,0x00,0x00,0x00,
0x40,0x00,0x00,0x00,0x10,0x00,0x00,0x00,0x02,0x00,0x00,0x00,
0x01,0x00,0x00,0x00,0x03,0x00,0x00,0x00,0x02,0x00,0x00,0x00,
0xff,0xff,0xff,0xff,0x03,0x00,0x00,0x00,0x19,0x00,0x00,0x00,
0x53,0x74,0x61,0x74,0x65,0x66,0x75,0x6c,0x50,0x61,0x72,0x74,
0x69,0x74,0x69,0x6f,0x6e,0x65,0x64,0x43,0x61,0x6c,0x6c,0x3a,
0x30,0x00,0x00,0x00,0x10,0xf6,0xff,0xff,0x82,0xfe,0xff,0xff,
0x00,0x00,0x00,0x09,0x03,0x00,0x00,0x00,0x1c,0x00,0x00,0x00,
0x10,0x00,0x00,0x00,0x04,0x00,0x00,0x00,0x06,0xf7,0xff,0xff,
0x00,0x00,0x80,0x3f,0x01,0x00,0x00,0x00,0x0d,0x00,0x00,0x00,
0x01,0x00,0x00,0x00,0x0c,0x00,0x00,0x00,0xe4,0xfb,0xff,0xff,
0x19,0x00,0x00,0x00,0x00,0x00,0x00,0x19,0x02,0x00,0x00,0x00,
0xd8,0xfb,0xff,0xff,0x00,0x00,0x00,0x09,0x14,0x00,0x00,0x00,
0x0e,0x00,0x00,0x00,0x24,0x00,0x00,0x00,0x40,0x00,0x00,0x00,
0x10,0x00,0x00,0x00,0x02,0x00,0x00,0x00,0x01,0x00,0x00,0x00,
0x03,0x00,0x00,0x00,0x02,0x00,0x00,0x00,0xff,0xff,0xff,0xff,
0x03,0x00,0x00,0x00,0x1a,0x00,0x00,0x00,0x53,0x74,0x61,0x74,
0x65,0x66,0x75,0x6c,0x50,0x61,0x72,0x74,0x69,0x74,0x69,0x6f,
0x6e,0x65,0x64,0x43,0x61,0x6c,0x6c,0x3a,0x30,0x31,0x00,0x00,
0xb4,0xf7,0xff,0xff,0x08,0x00,0x00,0x00,0x0c,0x00,0x00,0x00,
0x01,0x00,0x00,0x00,0x00,0x00,0x80,0x3b,0x01,0x00,0x00,0x00,
0x80,0xff,0xff,0xff,0xff,0xff,0xff,0xff,0x00,0x00,0x00,0x00,
0x3a,0xff,0xff,0xff,0x00,0x00,0x00,0x08,0x02,0x00,0x00,0x00,
0x18,0x00,0x00,0x00,0x0c,0x00,0x00,0x00,0x04,0x00,0x00,0x00,
0xe4,0xf6,0xff,0xff,0x01,0x00,0x00,0x00,0x0c,0x00,0x00,0x00,
0x03,0x00,0x00,0x00,0x0b,0x00,0x00,0x00,0x06,0x00,0x00,0x00,
0x07,0x00,0x00,0x00,0x84,0xfc,0xff,0xff,0x00,0x00,0x00,0x09,
0x14,0x00,0x00,0x00,0x0d,0x00,0x00,0x00,0x24,0x00,0x00,0x00,
0x5c,0x00,0x00,0x00,0x10,0x00,0x00,0x00,0x02,0x00,0x00,0x00,
0x01,0x00,0x00,0x00,0x03,0x00,0x00,0x00,0x02,0x00,0x00,0x00,
0xff,0xff,0xff,0xff,0x03,0x00,0x00,0x00,0x34,0x00,0x00,0x00,
0x73,0x65,0x71,0x75,0x65,0x6e,0x74,0x69,0x61,0x6c,0x2f,0x64,
0x65,0x6e,0x73,0x65,0x5f,0x32,0x2f,0x4d,0x61,0x74,0x4d,0x75,
0x6c,0x3b,0x73,0x65,0x71,0x75,0x65,0x6e,0x74,0x69,0x61,0x6c,
0x2f,0x64,0x65,0x6e,0x73,0x65,0x5f,0x32,0x2f,0x42,0x69,0x61,
0x73,0x41,0x64,0x64,0x00,0x00,0x00,0x00,0x7c,0xf8,0xff,0xff,
0x08,0x00,0x00,0x00,0x0c,0x00,0x00,0x00,0x01,0x00,0x00,0x00,
0x53,0x56,0x31,0x3c,0x01,0x00,0x00,0x00,0xd5,0xff,0xff,0xff,
0xff,0xff,0xff,0xff,0x00,0x00,0x0e,0x00,0x18,0x00,0x08,0x00,
0x0c,0x00,0x10,0x00,0x07,0x00,0x14,0x00,0x0e,0x00,0x00,0x00,
0x00,0x00,0x00,0x08,0x02,0x00,0x00,0x00,0x1c,0x00,0x00,0x00,
0x10,0x00,0x00,0x00,0x04,0x00,0x00,0x00,0x0e,0xff,0xff,0xff,
0x00,0x00,0x00,0x01,0x01,0x00,0x00,0x00,0x0b,0x00,0x00,0x00,
0x03,0x00,0x00,0x00,0x0a,0x00,0x00,0x00,0x04,0x00,0x00,0x00,
0x05,0x00,0x00,0x00,0x5c,0xfd,0xff,0xff,0x00,0x00,0x00,0x09,
0x14,0x00,0x00,0x00,0x0c,0x00,0x00,0x00,0x24,0x00,0x00,0x00,
0x74,0x00,0x00,0x00,0x10,0x00,0x00,0x00,0x02,0x00,0x00,0x00,
0x01,0x00,0x00,0x00,0x0a,0x00,0x00,0x00,0x02,0x00,0x00,0x00,
0xff,0xff,0xff,0xff,0x0a,0x00,0x00,0x00,0x4c,0x00,0x00,0x00,
0x73,0x65,0x71,0x75,0x65,0x6e,0x74,0x69,0x61,0x6c,0x2f,0x64,
0x65,0x6e,0x73,0x65,0x5f,0x31,0x2f,0x4d,0x61,0x74,0x4d,0x75,
0x6c,0x3b,0x73,0x65,0x71,0x75,0x65,0x6e,0x74,0x69,0x61,0x6c,
0x2f,0x64,0x65,0x6e,0x73,0x65,0x5f,0x31,0x2f,0x52,0x65,0x6c,
0x75,0x3b,0x73,0x65,0x71,0x75,0x65,0x6e,0x74,0x69,0x61,0x6c,
0x2f,0x64,0x65,0x6e,0x73,0x65,0x5f,0x31,0x2f,0x42,0x69,0x61,
0x73,0x41,0x64,0x64,0x00,0x00,0x00,0x00,0x6c,0xf9,0xff,0xff,
0x08,0x00,0x00,0x00,0x0c,0x00,0x00,0x00,0x01,0x00,0x00,0x00,
0x6a,0x30,0xbd,0x3b,0x01,0x00,0x00,0x00,0x80,0xff,0xff,0xff,
0xff,0xff,0xff,0xff,0x00,0x00,0x0e,0x00,0x1a,0x00,0x08,0x00,
0x0c,0x00,0x10,0x00,0x07,0x00,0x14,0x00,0x0e,0x00,0x00,0x00,
0x00,0x00,0x00,0x08,0x02,0x00,0x00,0x00,0x24,0x00,0x00,0x00,
0x18,0x00,0x00,0x00,0x0c,0x00,0x00,0x00,0x00,0x00,0x06,0x00,
0x08,0x00,0x07,0x00,0x06,0x00,0x00,0x00,0x00,0x00,0x00,0x01,
0x01,0x00,0x00,0x00,0x0a,0x00,0x00,0x00,0x03,0x00,0x00,0x00,
0x09,0x00,0x00,0x00,0x02,0x00,0x00,0x00,0x03,0x00,0x00,0x00,
0x70,0xfe,0xff,0xff,0x09,0x00,0x00,0x00,0x00,0x00,0x00,0x09,
0x04,0x00,0x00,0x00,0x64,0xfe,0xff,0xff,0x00,0x00,0x00,0x09,
0x14,0x00,0x00,0x00,0x0b,0x00,0x00,0x00,0x24,0x00,0x00,0x00,
0x6c,0x00,0x00,0x00,0x10,0x00,0x00,0x00,0x02,0x00,0x00,0x00,
0x01,0x00,0x00,0x00,0x0f,0x00,0x00,0x00,0x02,0x00,0x00,0x00,
0xff,0xff,0xff,0xff,0x0f,0x00,0x00,0x00,0x46,0x00,0x00,0x00,
0x73,0x65,0x71,0x75,0x65,0x6e,0x74,0x69,0x61,0x6c,0x2f,0x64,
0x65,0x6e,0x73,0x65,0x2f,0x4d,0x61,0x74,0x4d,0x75,0x6c,0x3b,
0x73,0x65,0x71,0x75,0x65,0x6e,0x74,0x69,0x61,0x6c,0x2f,0x64,
0x65,0x6e,0x73,0x65,0x2f,0x52,0x65,0x6c,0x75,0x3b,0x73,0x65,
0x71,0x75,0x65,0x6e,0x74,0x69,0x61,0x6c,0x2f,0x64,0x65,0x6e,
0x73,0x65,0x2f,0x42,0x69,0x61,0x73,0x41,0x64,0x64,0x00,0x00,
0x6c,0xfa,0xff,0xff,0x08,0x00,0x00,0x00,0x0c,0x00,0x00,0x00,
0x01,0x00,0x00,0x00,0x7a,0x67,0xd4,0x3b,0x01,0x00,0x00,0x00,
0x80,0xff,0xff,0xff,0xff,0xff,0xff,0xff,0x00,0x00,0x00,0x00,
0x00,0x00,0x0a,0x00,0x10,0x00,0x04,0x00,0x08,0x00,0x0c,0x00,
0x0a,0x00,0x00,0x00,0x01,0x00,0x00,0x00,0x10,0x00,0x00,0x00,
0x04,0x00,0x00,0x00,0x01,0x00,0x00,0x00,0x09,0x00,0x00,0x00,
0x02,0x00,0x00,0x00,0x08,0x00,0x00,0x00,0x01,0x00,0x00,0x00,
0x54,0xff,0xff,0xff,0x16,0x00,0x00,0x00,0x00,0x00,0x00,0x16,
0x01,0x00,0x00,0x00,0x48,0xff,0xff,0xff,0x00,0x00,0x00,0x09,
0x14,0x00,0x00,0x00,0x0a,0x00,0x00,0x00,0x24,0x00,0x00,0x00,
0x40,0x00,0x00,0x00,0x10,0x00,0x00,0x00,0x02,0x00,0x00,0x00,
0x01,0x00,0x00,0x00,0x09,0x00,0x00,0x00,0x02,0x00,0x00,0x00,
0xff,0xff,0xff,0xff,0x09,0x00,0x00,0x00,0x1a,0x00,0x00,0x00,
0x73,0x65,0x71,0x75,0x65,0x6e,0x74,0x69,0x61,0x6c,0x2f,0x66,
0x6c,0x61,0x74,0x74,0x65,0x6e,0x2f,0x52,0x65,0x73,0x68,0x61,
0x70,0x65,0x00,0x00,0x24,0xfb,0xff,0xff,0x08,0x00,0x00,0x00,
0x0c,0x00,0x00,0x00,0x01,0x00,0x00,0x00,0x81,0x80,0x80,0x3b,
0x01,0x00,0x00,0x00,0x80,0xff,0xff,0xff,0xff,0xff,0xff,0xff,
0x00,0x00,0x0a,0x00,0x0c,0x00,0x00,0x00,0x04,0x00,0x08,0x00,
0x0a,0x00,0x00,0x00,0x10,0x00,0x00,0x00,0x04,0x00,0x00,0x00,
0x01,0x00,0x00,0x00,0x08,0x00,0x00,0x00,0x01,0x00,0x00,0x00,
0x00,0x00,0x00,0x00,0x0c,0x00,0x10,0x00,0x0b,0x00,0x00,0x00,
0x0c,0x00,0x04,0x00,0x0c,0x00,0x00,0x00,0x72,0x00,0x00,0x00,
0x00,0x00,0x00,0x72,0x01,0x00,0x00,0x00,0x14,0x00,0x1c,0x00,
0x08,0x00,0x07,0x00,0x0c,0x00,0x10,0x00,0x14,0x00,0x00,0x00,
0x00,0x00,0x18,0x00,0x14,0x00,0x00,0x00,0x00,0x00,0x00,0x09,
0x14,0x00,0x00,0x00,0x09,0x00,0x00,0x00,0x24,0x00,0x00,0x00,
0x34,0x00,0x00,0x00,0x10,0x00,0x00,0x00,0x02,0x00,0x00,0x00,
0x01,0x00,0x00,0x00,0x09,0x00,0x00,0x00,0x02,0x00,0x00,0x00,
0xff,0xff,0xff,0xff,0x09,0x00,0x00,0x00,0x0c,0x00,0x00,0x00,
0x74,0x66,0x6c,0x2e,0x71,0x75,0x61,0x6e,0x74,0x69,0x7a,0x65,
0x00,0x00,0x00,0x00,0xe4,0xfb,0xff,0xff,0x08,0x00,0x00,0x00,
0x0c,0x00,0x00,0x00,0x01,0x00,0x00,0x00,0x81,0x80,0x80,0x3b,
0x01,0x00,0x00,0x00,0x80,0xff,0xff,0xff,0xff,0xff,0xff,0xff,
0x00,0x00,0x00,0x00,0xd6,0xfb,0xff,0xff,0x04,0x00,0x00,0x00,
0x0c,0x00,0x00,0x00,0x11,0xf6,0xff,0xff,0x36,0x06,0x00,0x00,
0x4b,0x07,0x00,0x00,0xd2,0xfb,0xff,0xff,0x00,0x00,0x00,0x02,
0x10,0x00,0x00,0x00,0x08,0x00,0x00,0x00,0x10,0x00,0x00,0x00,
0x20,0x00,0x00,0x00,0x01,0x00,0x00,0x00,0x03,0x00,0x00,0x00,
0x0c,0x00,0x00,0x00,0x64,0x65,0x6e,0x73,0x65,0x5f,0x32,0x2f,
0x62,0x69,0x61,0x73,0x00,0x00,0x00,0x00,0x54,0xfc,0xff,0xff,
0x08,0x00,0x00,0x00,0x0c,0x00,0x00,0x00,0x01,0x00,0x00,0x00,
0x6c,0x9f,0xf3,0x37,0x01,0x00,0x00,0x00,0x00,0x00,0x00,0x00,
0x00,0x00,0x00,0x00,0x42,0xfc,0xff,0xff,0x04,0x00,0x00,0x00,
0x1e,0x00,0x00,0x00,0x5e,0x68,0x56,0xf4,0xe2,0xa3,0xb5,0x7f,
0xcd,0x8b,0x9c,0x4d,0x97,0xdd,0x1d,0x97,0x8f,0x3c,0x42,0x60,
0xd5,0x81,0x46,0x6c,0x46,0xe7,0xda,0x0f,0x44,0x25,0x00,0x00,
0x52,0xfc,0xff,0xff,0x00,0x00,0x00,0x09,0x10,0x00,0x00,0x00,
0x07,0x00,0x00,0x00,0x14,0x00,0x00,0x00,0x30,0x00,0x00,0x00,
0x02,0x00,0x00,0x00,0x03,0x00,0x00,0x00,0x0a,0x00,0x00,0x00,
0x19,0x00,0x00,0x00,0x73,0x65,0x71,0x75,0x65,0x6e,0x74,0x69,
0x61,0x6c,0x2f,0x64,0x65,0x6e,0x73,0x65,0x5f,0x32,0x2f,0x4d,
0x61,0x74,0x4d,0x75,0x6c,0x00,0x00,0x00,0xe4,0xfc,0xff,0xff,
0x08,0x00,0x00,0x00,0x0c,0x00,0x00,0x00,0x01,0x00,0x00,0x00,
0x08,0xd4,0xa4,0x3b,0x01,0x00,0x00,0x00,0x00,0x00,0x00,0x00,
0x00,0x00,0x00,0x00,0xd2,0xfc,0xff,0xff,0x04,0x00,0x00,0x00,
0x28,0x00,0x00,0x00,0x8b,0xf7,0xff,0xff,0x0e,0xfa,0xff,0xff,
0xfa,0xf7,0xff,0xff,0xd8,0x07,0x00,0x00,0x8f,0x0b,0x00,0x00,
0x00,0x00,0x00,0x00,0xd2,0x06,0x00,0x00,0x8b,0xfd,0xff,0xff,
0xea,0x0d,0x00,0x00,0xf8,0x0d,0x00,0x00,0xea,0xfc,0xff,0xff,
0x00,0x00,0x00,0x02,0x10,0x00,0x00,0x00,0x06,0x00,0x00,0x00,
0x10,0x00,0x00,0x00,0x20,0x00,0x00,0x00,0x01,0x00,0x00,0x00,
0x0a,0x00,0x00,0x00,0x0c,0x00,0x00,0x00,0x64,0x65,0x6e,0x73,
0x65,0x5f,0x31,0x2f,0x62,0x69,0x61,0x73,0x00,0x00,0x00,0x00,
0x6c,0xfd,0xff,0xff,0x08,0x00,0x00,0x00,0x0c,0x00,0x00,0x00,
0x01,0x00,0x00,0x00,0xa0,0x74,0xe7,0x37,0x01,0x00,0x00,0x00,
0x00,0x00,0x00,0x00,0x00,0x00,0x00,0x00,0x5a,0xfd,0xff,0xff,
0x04,0x00,0x00,0x00,0x96,0x00,0x00,0x00,0x2e,0x24,0x95,0x02,
0x63,0x8b,0x66,0x2e,0xd0,0x5b,0xde,0xeb,0xa9,0xa3,0xba,0x10,
0xa5,0xad,0x43,0xc0,0xf3,0x37,0x10,0xfc,0x2b,0x45,0x67,0x54,
0x5d,0xd3,0x17,0x7f,0x4a,0xec,0x4b,0x42,0xa1,0xc2,0xb7,0x59,
0xd7,0xf5,0x3b,0x5d,0xd9,0xde,0x34,0x4d,0x6d,0xb0,0x20,0x78,
0xe0,0x24,0x77,0x68,0xfe,0xd7,0xd5,0x63,0x13,0x73,0x12,0xba,
0xe9,0xdc,0x08,0x0e,0x4a,0x39,0x4b,0x5e,0x35,0x04,0x08,0xdc,
0xd3,0xb2,0x12,0xe5,0x5e,0x5f,0x01,0xf8,0xe6,0x26,0x41,0xab,
0x4d,0xe4,0x3b,0x21,0x5f,0x10,0xca,0x6a,0x27,0xdc,0xfc,0x0c,
0xcc,0xe9,0xd0,0x4d,0x5c,0x5f,0x95,0x13,0xd4,0x9e,0xc6,0xdf,
0xe9,0xab,0x96,0xaf,0xf3,0xfa,0xe5,0x35,0xc6,0x37,0xe8,0x30,
0x43,0x21,0x57,0xeb,0x41,0x08,0x94,0xb0,0xdc,0xf3,0x4a,0xb4,
0xeb,0x54,0xcf,0x47,0xc0,0xa4,0x52,0x9e,0x6d,0x00,0xaf,0xd0,
0xce,0x67,0x00,0x00,0xe2,0xfd,0xff,0xff,0x00,0x00,0x00,0x09,
0x10,0x00,0x00,0x00,0x05,0x00,0x00,0x00,0x14,0x00,0x00,0x00,
0x30,0x00,0x00,0x00,0x02,0x00,0x00,0x00,0x0a,0x00,0x00,0x00,
0x0f,0x00,0x00,0x00,0x19,0x00,0x00,0x00,0x73,0x65,0x71,0x75,
0x65,0x6e,0x74,0x69,0x61,0x6c,0x2f,0x64,0x65,0x6e,0x73,0x65,
0x5f,0x31,0x2f,0x4d,0x61,0x74,0x4d,0x75,0x6c,0x00,0x00,0x00,
0x74,0xfe,0xff,0xff,0x08,0x00,0x00,0x00,0x0c,0x00,0x00,0x00,
0x01,0x00,0x00,0x00,0x17,0x7b,0x8b,0x3b,0x01,0x00,0x00,0x00,
0x00,0x00,0x00,0x00,0x00,0x00,0x00,0x00,0x62,0xfe,0xff,0xff,
0x04,0x00,0x00,0x00,0x3c,0x00,0x00,0x00,0xf7,0xf6,0xff,0xff,
0x8f,0x13,0x00,0x00,0x00,0x00,0x00,0x00,0x95,0xf1,0xff,0xff,
0xd7,0xf6,0xff,0xff,0x53,0x0f,0x00,0x00,0xf3,0xf1,0xff,0xff,
0xd1,0xfc,0xff,0xff,0xf9,0x0b,0x00,0x00,0x3a,0xf6,0xff,0xff,
0xf9,0xf5,0xff,0xff,0x75,0xf8,0xff,0xff,0x5d,0xf0,0xff,0xff,
0x00,0x00,0x00,0x00,0x1c,0x15,0x00,0x00,0x8e,0xfe,0xff,0xff,
0x00,0x00,0x00,0x02,0x10,0x00,0x00,0x00,0x04,0x00,0x00,0x00,
0x10,0x00,0x00,0x00,0x1c,0x00,0x00,0x00,0x01,0x00,0x00,0x00,
0x0f,0x00,0x00,0x00,0x0a,0x00,0x00,0x00,0x64,0x65,0x6e,0x73,
0x65,0x2f,0x62,0x69,0x61,0x73,0x00,0x00,0x0c,0xff,0xff,0xff,
0x08,0x00,0x00,0x00,0x0c,0x00,0x00,0x00,0x01,0x00,0x00,0x00,
0x6d,0xbe,0x8a,0x37,0x01,0x00,0x00,0x00,0x00,0x00,0x00,0x00,
0x00,0x00,0x00,0x00,0xfa,0xfe,0xff,0xff,0x04,0x00,0x00,0x00,
0x87,0x00,0x00,0x00,0xcc,0xb5,0xcd,0x2f,0x60,0xb2,0x0b,0xf4,
0xe3,0x1d,0xe9,0x56,0x59,0x45,0xb3,0x4e,0x77,0xc4,0xa8,0xc6,
0xa2,0x13,0xac,0x3f,0xdb,0xa1,0x9a,0x4e,0x88,0x68,0x44,0xbe,
0x3c,0xa1,0x69,0x95,0x8c,0xb1,0xfc,0x6e,0xb3,0xf4,0xd2,0x64,
0x4e,0xbf,0x34,0x77,0x39,0xd5,0xb1,0x2c,0x4a,0xf9,0xba,0xb0,
0x19,0xe6,0xf2,0x45,0xeb,0xf2,0xde,0x24,0xba,0x9a,0x56,0xbf,
0x03,0x2a,0x1b,0xdc,0xb0,0x57,0xb7,0x07,0x48,0xc2,0xc3,0xaa,
0x38,0xca,0x5e,0x66,0xe6,0xaa,0x3d,0x29,0x32,0x58,0x0c,0x13,
0xb8,0xb5,0x87,0x5b,0xa4,0x10,0xb7,0x50,0x89,0xcf,0x53,0xd1,
0xa1,0x40,0xdc,0x6a,0x0f,0x13,0x81,0x62,0xe3,0x58,0x37,0x50,
0x67,0xd9,0xdc,0x03,0xd0,0xed,0x8d,0x9d,0x55,0x47,0x99,0xc8,
0xfe,0x2b,0x5f,0x20,0x7a,0x2a,0xfd,0x00,0x72,0xff,0xff,0xff,
0x00,0x00,0x00,0x09,0x10,0x00,0x00,0x00,0x03,0x00,0x00,0x00,
0x14,0x00,0x00,0x00,0x38,0x00,0x00,0x00,0x02,0x00,0x00,0x00,
0x0f,0x00,0x00,0x00,0x09,0x00,0x00,0x00,0x17,0x00,0x00,0x00,
0x73,0x65,0x71,0x75,0x65,0x6e,0x74,0x69,0x61,0x6c,0x2f,0x64,
0x65,0x6e,0x73,0x65,0x2f,0x4d,0x61,0x74,0x4d,0x75,0x6c,0x00,
0x0c,0x00,0x0c,0x00,0x00,0x00,0x00,0x00,0x04,0x00,0x08,0x00,
0x0c,0x00,0x00,0x00,0x08,0x00,0x00,0x00,0x0c,0x00,0x00,0x00,
0x01,0x00,0x00,0x00,0xae,0x33,0x8a,0x3b,0x01,0x00,0x00,0x00,
0x00,0x00,0x00,0x00,0x00,0x00,0x00,0x00,0x00,0x00,0x00,0x00,
0x00,0x00,0x06,0x00,0x08,0x00,0x04,0x00,0x06,0x00,0x00,0x00,
0x04,0x00,0x00,0x00,0x08,0x00,0x00,0x00,0xff,0xff,0xff,0xff,
0x09,0x00,0x00,0x00,0x00,0x00,0x0e,0x00,0x18,0x00,0x08,0x00,
0x07,0x00,0x0c,0x00,0x10,0x00,0x14,0x00,0x0e,0x00,0x00,0x00,
0x00,0x00,0x00,0x02,0x10,0x00,0x00,0x00,0x02,0x00,0x00,0x00,
0x10,0x00,0x00,0x00,0x2c,0x00,0x00,0x00,0x01,0x00,0x00,0x00,
0x02,0x00,0x00,0x00,0x18,0x00,0x00,0x00,0x73,0x65,0x71,0x75,
0x65,0x6e,0x74,0x69,0x61,0x6c,0x2f,0x66,0x6c,0x61,0x74,0x74,
0x65,0x6e,0x2f,0x43,0x6f,0x6e,0x73,0x74,0x00,0x00,0x00,0x00,
0x90,0xff,0xff,0xff,0x14,0x00,0x18,0x00,0x04,0x00,0x00,0x00,
0x08,0x00,0x0c,0x00,0x10,0x00,0x00,0x00,0x00,0x00,0x14,0x00,
0x14,0x00,0x00,0x00,0x14,0x00,0x00,0x00,0x01,0x00,0x00,0x00,
0x24,0x00,0x00,0x00,0x44,0x00,0x00,0x00,0x10,0x00,0x00,0x00,
0x02,0x00,0x00,0x00,0x01,0x00,0x00,0x00,0x09,0x00,0x00,0x00,
0x02,0x00,0x00,0x00,0xff,0xff,0xff,0xff,0x09,0x00,0x00,0x00,
0x1f,0x00,0x00,0x00,0x73,0x65,0x72,0x76,0x69,0x6e,0x67,0x5f,
0x64,0x65,0x66,0x61,0x75,0x6c,0x74,0x5f,0x66,0x6c,0x61,0x74,
0x74,0x65,0x6e,0x5f,0x69,0x6e,0x70,0x75,0x74,0x3a,0x30,0x00,
0xfc,0xff,0xff,0xff,0x04,0x00,0x04,0x00,0x04,0x00,0x00,0x00

};

#endif //LENSES_MODEL_ESP32_H